unsigned char optimized_tflite[] = {
  0x1c, 0x00, 0x00, 0x00, 0x54, 0x46, 0x4c, 0x33, 0x14, 0x00, 0x20, 0x00,
  0x1c, 0x00, 0x18, 0x00, 0x14, 0x00, 0x10, 0x00, 0x0c, 0x00, 0x00, 0x00,
  0x08, 0x00, 0x04, 0x00, 0x14, 0x00, 0x00, 0x00, 0x1c, 0x00, 0x00, 0x00,
  0x8c, 0x00, 0x00, 0x00, 0xe4, 0x00, 0x00, 0x00, 0x24, 0x0b, 0x00, 0x00,
  0x34, 0x0b, 0x00, 0x00, 0x5c, 0x11, 0x00, 0x00, 0x03, 0x00, 0x00, 0x00,
  0x01, 0x00, 0x00, 0x00, 0x10, 0x00, 0x00, 0x00, 0x00, 0x00, 0x0a, 0x00,
  0x10, 0x00, 0x0c, 0x00, 0x08, 0x00, 0x04, 0x00, 0x0a, 0x00, 0x00, 0x00,
  0x0c, 0x00, 0x00, 0x00, 0x1c, 0x00, 0x00, 0x00, 0x38, 0x00, 0x00, 0x00,
  0x0f, 0x00, 0x00, 0x00, 0x73, 0x65, 0x72, 0x76, 0x69, 0x6e, 0x67, 0x5f,
  0x64, 0x65, 0x66, 0x61, 0x75, 0x6c, 0x74, 0x00, 0x01, 0x00, 0x00, 0x00,
  0x04, 0x00, 0x00, 0x00, 0x9c, 0xff, 0xff, 0xff, 0x0c, 0x00, 0x00, 0x00,
  0x04, 0x00, 0x00, 0x00, 0x04, 0x00, 0x00, 0x00, 0x6c, 0x61, 0x73, 0x74,
  0x00, 0x00, 0x00, 0x00, 0x01, 0x00, 0x00, 0x00, 0x04, 0x00, 0x00, 0x00,
  0x7a, 0xf5, 0xff, 0xff, 0x04, 0x00, 0x00, 0x00, 0x05, 0x00, 0x00, 0x00,
  0x69, 0x6e, 0x70, 0x75, 0x74, 0x00, 0x00, 0x00, 0x02, 0x00, 0x00, 0x00,
  0x34, 0x00, 0x00, 0x00, 0x04, 0x00, 0x00, 0x00, 0xdc, 0xff, 0xff, 0xff,
  0x0f, 0x00, 0x00, 0x00, 0x04, 0x00, 0x00, 0x00, 0x13, 0x00, 0x00, 0x00,
  0x43, 0x4f, 0x4e, 0x56, 0x45, 0x52, 0x53, 0x49, 0x4f, 0x4e, 0x5f, 0x4d,
  0x45, 0x54, 0x41, 0x44, 0x41, 0x54, 0x41, 0x00, 0x08, 0x00, 0x0c, 0x00,
  0x08, 0x00, 0x04, 0x00, 0x08, 0x00, 0x00, 0x00, 0x0e, 0x00, 0x00, 0x00,
  0x04, 0x00, 0x00, 0x00, 0x13, 0x00, 0x00, 0x00, 0x6d, 0x69, 0x6e, 0x5f,
  0x72, 0x75, 0x6e, 0x74, 0x69, 0x6d, 0x65, 0x5f, 0x76, 0x65, 0x72, 0x73,
  0x69, 0x6f, 0x6e, 0x00, 0x10, 0x00, 0x00, 0x00, 0x3c, 0x0a, 0x00, 0x00,
  0x34, 0x0a, 0x00, 0x00, 0x10, 0x0a, 0x00, 0x00, 0xbc, 0x09, 0x00, 0x00,
  0xa8, 0x09, 0x00, 0x00, 0x34, 0x09, 0x00, 0x00, 0xf8, 0x07, 0x00, 0x00,
  0x0c, 0x02, 0x00, 0x00, 0xd0, 0x00, 0x00, 0x00, 0xac, 0x00, 0x00, 0x00,
  0xa4, 0x00, 0x00, 0x00, 0x9c, 0x00, 0x00, 0x00, 0x94, 0x00, 0x00, 0x00,
  0x8c, 0x00, 0x00, 0x00, 0x6c, 0x00, 0x00, 0x00, 0x04, 0x00, 0x00, 0x00,
  0x2e, 0xf6, 0xff, 0xff, 0x04, 0x00, 0x00, 0x00, 0x58, 0x00, 0x00, 0x00,
  0x0c, 0x00, 0x00, 0x00, 0x08, 0x00, 0x0e, 0x00, 0x08, 0x00, 0x04, 0x00,
  0x08, 0x00, 0x00, 0x00, 0x10, 0x00, 0x00, 0x00, 0x28, 0x00, 0x00, 0x00,
  0x00, 0x00, 0x06, 0x00, 0x08, 0x00, 0x04, 0x00, 0x06, 0x00, 0x00, 0x00,
  0x04, 0x00, 0x00, 0x00, 0x01, 0x00, 0x00, 0x00, 0xea, 0x03, 0x00, 0x00,
  0x00, 0x00, 0x0a, 0x00, 0x10, 0x00, 0x0c, 0x00, 0x08, 0x00, 0x04, 0x00,
  0x0a, 0x00, 0x00, 0x00, 0x01, 0x00, 0x00, 0x00, 0x02, 0x00, 0x00, 0x00,
  0x04, 0x00, 0x00, 0x00, 0x06, 0x00, 0x00, 0x00, 0x32, 0x2e, 0x31, 0x35,
  0x2e, 0x30, 0x00, 0x00, 0x92, 0xf6, 0xff, 0xff, 0x04, 0x00, 0x00, 0x00,
  0x10, 0x00, 0x00, 0x00, 0x31, 0x2e, 0x35, 0x2e, 0x30, 0x00, 0x00, 0x00,
  0x00, 0x00, 0x00, 0x00, 0x00, 0x00, 0x00, 0x00, 0x70, 0xf0, 0xff, 0xff,
  0x74, 0xf0, 0xff, 0xff, 0x78, 0xf0, 0xff, 0xff, 0x7c, 0xf0, 0xff, 0xff,
  0xbe, 0xf6, 0xff, 0xff, 0x04, 0x00, 0x00, 0x00, 0x14, 0x00, 0x00, 0x00,
  0x86, 0x48, 0x71, 0xbf, 0x04, 0x43, 0x0c, 0x3f, 0x26, 0x55, 0x31, 0x3f,
  0xb2, 0x7b, 0xbf, 0x3e, 0x3e, 0x00, 0x78, 0x3e, 0xde, 0xf6, 0xff, 0xff,
  0x04, 0x00, 0x00, 0x00, 0x2c, 0x01, 0x00, 0x00, 0x02, 0x9d, 0xd4, 0xbe,
  0x23, 0x03, 0x6f, 0x3d, 0x45, 0xe2, 0x92, 0xbe, 0x8e, 0x37, 0xd0, 0x3e,
  0x80, 0x96, 0x0b, 0x3f, 0xc9, 0x34, 0x0d, 0x3e, 0x40, 0x93, 0x27, 0x3c,
  0x32, 0xa6, 0x4d, 0x3d, 0x89, 0x16, 0x10, 0xbc, 0x04, 0x7f, 0xac, 0x3e,
  0xdc, 0x81, 0xa9, 0xbe, 0xb0, 0x5f, 0x8c, 0x3e, 0xfc, 0x0d, 0x0f, 0x3e,
  0x55, 0x05, 0xb5, 0x3e, 0x80, 0xfe, 0xa1, 0x3c, 0x88, 0xfe, 0x08, 0xbf,
  0x6c, 0x1e, 0xb8, 0xbe, 0x20, 0xbe, 0xa6, 0xbe, 0xbe, 0xdb, 0x49, 0xbe,
  0x2e, 0x5a, 0xdb, 0xbe, 0xd0, 0xba, 0xcd, 0xbe, 0x14, 0x2c, 0xb6, 0x3e,
  0xa8, 0xfc, 0xc8, 0x3d, 0xfc, 0x73, 0xf3, 0xbd, 0x51, 0xa2, 0xb0, 0xbe,
  0x9e, 0x04, 0xe7, 0xbe, 0xf2, 0x0e, 0xdc, 0x3e, 0xf2, 0x0a, 0x31, 0xbe,
  0xe2, 0x8e, 0x5f, 0xbe, 0xf0, 0xb1, 0x53, 0x3e, 0xb3, 0x14, 0xfb, 0x3e,
  0x27, 0xfc, 0x09, 0x3d, 0xcd, 0x32, 0x17, 0x3f, 0xfa, 0xd5, 0xe5, 0xbd,
  0x10, 0x1d, 0xde, 0xbd, 0x54, 0x19, 0x05, 0x3f, 0xbc, 0xea, 0x40, 0x3e,
  0x7b, 0xbf, 0x4b, 0xbe, 0x2d, 0xeb, 0xda, 0x3e, 0x4b, 0x11, 0xa7, 0x3d,
  0xf6, 0x59, 0x83, 0xbd, 0xe5, 0x02, 0x1a, 0x3c, 0x11, 0x5b, 0x49, 0x3e,
  0x16, 0x31, 0x7d, 0x3c, 0x70, 0xa9, 0xe0, 0x3e, 0x22, 0xe8, 0xcc, 0xbe,
  0xa1, 0xe0, 0x05, 0xbe, 0x74, 0x7c, 0x02, 0x3f, 0xe5, 0x01, 0x79, 0xbe,
  0x3d, 0xe2, 0x0a, 0xbf, 0x6e, 0x4d, 0xe6, 0x3d, 0x32, 0x65, 0xc7, 0x3e,
  0xb8, 0xae, 0x85, 0xba, 0x32, 0x49, 0x31, 0x3c, 0xa4, 0x9b, 0x03, 0x3e,
  0x60, 0x61, 0xfc, 0x3e, 0x12, 0x78, 0xac, 0xbe, 0xb1, 0x5e, 0x5b, 0x3e,
  0x23, 0xf9, 0xbf, 0xbe, 0xae, 0xed, 0x13, 0xbe, 0x6c, 0xee, 0x2d, 0x3e,
  0xb9, 0x2b, 0x03, 0x3f, 0xce, 0x44, 0x7d, 0x3e, 0xea, 0xe6, 0xfd, 0xbe,
  0xe0, 0xd5, 0x00, 0x3f, 0x7f, 0xc0, 0x80, 0x3e, 0x10, 0x57, 0x7f, 0x3e,
  0x99, 0x86, 0x71, 0x3d, 0x29, 0x5e, 0x7f, 0x3e, 0x88, 0xc3, 0x0e, 0x3f,
  0x4d, 0x06, 0xae, 0xbe, 0x20, 0x5d, 0xda, 0xbc, 0x35, 0x0c, 0x0d, 0x3f,
  0xd7, 0xa0, 0x30, 0xbe, 0xdc, 0xf5, 0x05, 0xbf, 0x16, 0xf8, 0xff, 0xff,
  0x04, 0x00, 0x00, 0x00, 0xdc, 0x05, 0x00, 0x00, 0xe2, 0x1a, 0x6e, 0xbe,
  0xc9, 0xb6, 0x7f, 0xbd, 0xe2, 0x32, 0xb4, 0xbe, 0xb5, 0x43, 0x55, 0x3e,
  0x5a, 0x28, 0xf3, 0x3d, 0x05, 0x2e, 0xc4, 0x3b, 0xd4, 0xc1, 0xec, 0xbd,
  0x1c, 0x21, 0x4a, 0x3e, 0x9c, 0xfc, 0x87, 0x3e, 0x93, 0xb9, 0xb2, 0xbe,
  0x10, 0xe8, 0x16, 0x3e, 0x52, 0x4c, 0xc0, 0xbe, 0x0a, 0x9b, 0x43, 0x3e,
  0xa9, 0x9a, 0x04, 0xbe, 0x05, 0xed, 0x5b, 0x3e, 0xca, 0x78, 0x8e, 0x3e,
  0x08, 0x29, 0xa1, 0x3e, 0x90, 0xf1, 0x9b, 0xbe, 0x83, 0x7b, 0x43, 0xbe,
  0x86, 0x6d, 0x0a, 0x3d, 0xe4, 0xfb, 0x6f, 0xbe, 0x83, 0x35, 0x85, 0xbe,
  0xd4, 0x2a, 0xc1, 0x3d, 0xc8, 0x8d, 0x26, 0xbd, 0x60, 0x8d, 0xce, 0x3e,
  0xbc, 0xc6, 0x51, 0x3e, 0xe0, 0x19, 0x25, 0x3c, 0x09, 0xb7, 0xb8, 0xbe,
  0xe0, 0xf6, 0xe7, 0x3c, 0x09, 0xcf, 0x31, 0xbe, 0xe6, 0xdd, 0xdb, 0x3d,
  0x86, 0x63, 0x22, 0x3e, 0x14, 0x7b, 0xb4, 0xbe, 0xf2, 0x0d, 0x92, 0xbe,
  0xeb, 0x6a, 0x93, 0x3e, 0x18, 0xd0, 0x3d, 0x3d, 0x68, 0x55, 0x81, 0x3e,
  0x4c, 0x91, 0xf5, 0xbd, 0x5c, 0x0c, 0x1f, 0x3e, 0x1e, 0x92, 0x7f, 0xbe,
  0x2c, 0xc1, 0xc2, 0xbe, 0x2a, 0x18, 0xa9, 0x3e, 0xb9, 0x00, 0xa2, 0xbe,
  0x00, 0xba, 0xf1, 0x3d, 0x7c, 0x1a, 0xc4, 0x3e, 0xec, 0x22, 0x9c, 0xbe,
  0xc0, 0x3a, 0x14, 0xbc, 0x20, 0x3c, 0x51, 0xbc, 0x8f, 0xb9, 0x9e, 0x3e,
  0xe0, 0xc5, 0xb6, 0xbe, 0xa0, 0x34, 0xad, 0x3e, 0x1b, 0xb1, 0x92, 0xbe,
  0xb0, 0xa9, 0xd3, 0x3e, 0x32, 0xd3, 0x3f, 0x3e, 0x20, 0x5a, 0x17, 0xbe,
  0x67, 0x4b, 0xd6, 0x3e, 0xfe, 0x65, 0x8d, 0xbe, 0x46, 0x90, 0x8b, 0xbd,
  0x4a, 0xc2, 0xa4, 0x3e, 0xc0, 0x04, 0x47, 0xbe, 0xb0, 0xe6, 0x81, 0x3e,
  0x54, 0x09, 0xd4, 0x3d, 0x2f, 0x9f, 0x57, 0x3e, 0x52, 0x85, 0x88, 0x3e,
  0x4c, 0xec, 0x52, 0x3e, 0x5e, 0x76, 0xc7, 0x3e, 0x79, 0xce, 0xc2, 0x3d,
  0x3e, 0x72, 0xa4, 0xbd, 0xe2, 0x98, 0x96, 0x3e, 0x53, 0x33, 0xad, 0x3e,
  0x4c, 0x8f, 0x07, 0x3e, 0x53, 0x61, 0x74, 0x3e, 0x97, 0x29, 0x73, 0x3d,
  0x62, 0xd8, 0xa7, 0x3e, 0xd8, 0x47, 0xbc, 0x3e, 0x86, 0x55, 0x90, 0xbe,
  0x7c, 0x64, 0x9b, 0x3e, 0xf8, 0x7f, 0x5e, 0xbc, 0xaf, 0xc2, 0xaf, 0x3e,
  0xd0, 0xa9, 0x93, 0x3e, 0x01, 0x4e, 0x83, 0x3e, 0xf8, 0xc6, 0x9a, 0xbe,
  0x2f, 0x98, 0xa9, 0x3e, 0x02, 0x11, 0x8b, 0xbe, 0x3b, 0xc7, 0xe9, 0x3c,
  0xc4, 0xe1, 0xcc, 0xbe, 0x0b, 0x23, 0x88, 0x3c, 0x1f, 0xc7, 0xe7, 0x3d,
  0xb1, 0x14, 0x53, 0x3c, 0x95, 0xf4, 0x48, 0x3e, 0x51, 0xb2, 0x7c, 0xbd,
  0xce, 0xc5, 0x3b, 0xbe, 0xd6, 0x32, 0x2b, 0xbe, 0x8e, 0x5b, 0xbf, 0xbc,
  0x1e, 0x10, 0xa3, 0x3e, 0x1f, 0x82, 0x4d, 0x3e, 0x2b, 0x67, 0x92, 0xbe,
  0x98, 0x5e, 0x9f, 0xbc, 0x07, 0xe8, 0x97, 0x3d, 0xa9, 0xff, 0x69, 0xbd,
  0x60, 0x1f, 0xe8, 0xbc, 0x6a, 0x91, 0x83, 0x3e, 0x62, 0xf2, 0x89, 0x3e,
  0xf8, 0x46, 0x83, 0xbe, 0xe0, 0x2f, 0x9a, 0xbe, 0x0e, 0xd1, 0x87, 0x3e,
  0x0c, 0x0a, 0x3a, 0x3e, 0xb8, 0x9d, 0x06, 0x3d, 0x08, 0xe0, 0xc2, 0x3e,
  0x41, 0x79, 0xbc, 0xbe, 0x58, 0x93, 0x84, 0x3d, 0xdc, 0x4d, 0x7f, 0x3e,
  0x50, 0xc5, 0xdf, 0x3c, 0xec, 0xcc, 0x95, 0xbd, 0x40, 0x1b, 0xc0, 0xbb,
  0x54, 0xf1, 0x0e, 0xbe, 0x84, 0x6b, 0x0f, 0x3e, 0x4c, 0x8d, 0x16, 0x3e,
  0x50, 0x40, 0xc0, 0x3e, 0xa0, 0x71, 0xae, 0x3c, 0xc0, 0x42, 0x0d, 0xbe,
  0x48, 0xed, 0xc4, 0xbe, 0xb8, 0x65, 0x2e, 0xbd, 0x35, 0x23, 0x52, 0xbe,
  0xe4, 0x02, 0x94, 0x3d, 0x75, 0xc7, 0xc0, 0x3e, 0xf8, 0x83, 0x3d, 0xbe,
  0x84, 0x1d, 0xc8, 0x3e, 0x64, 0x56, 0x23, 0x3d, 0x13, 0xb6, 0x75, 0x3e,
  0x6a, 0x86, 0xa8, 0xbe, 0x47, 0xb3, 0xa7, 0xbd, 0xea, 0xbf, 0x57, 0xbe,
  0x32, 0x1f, 0x76, 0x3e, 0x51, 0x24, 0x4b, 0xbe, 0x50, 0x47, 0x80, 0xbd,
  0xc0, 0x40, 0x2c, 0x3e, 0x85, 0x83, 0xa5, 0x3e, 0x7f, 0xf7, 0x88, 0xbd,
  0x8c, 0x5a, 0xc2, 0x3e, 0xff, 0x6f, 0xbb, 0xbd, 0xa8, 0x17, 0x6b, 0xbd,
  0x01, 0xe1, 0x80, 0x3e, 0x4c, 0xad, 0xc4, 0x3d, 0xe2, 0xc0, 0xc3, 0x3d,
  0x80, 0x31, 0x66, 0x3e, 0x6f, 0xcd, 0xab, 0x3e, 0xc5, 0xc4, 0x8b, 0xbd,
  0xe6, 0xaa, 0x8b, 0xbe, 0x1c, 0x24, 0x0e, 0x3d, 0xa8, 0x17, 0xa6, 0xbe,
  0x42, 0x6e, 0xa9, 0x3e, 0xcc, 0xa1, 0xb8, 0xbd, 0x48, 0x6a, 0xdd, 0xbd,
  0xc4, 0xb1, 0x93, 0xbd, 0x35, 0x05, 0xc1, 0xbe, 0xe0, 0x1b, 0x6b, 0x3e,
  0x50, 0xac, 0x06, 0x3e, 0x3e, 0x62, 0x07, 0xbe, 0x4c, 0xa8, 0xad, 0xbe,
  0xf3, 0x1e, 0x82, 0xbe, 0xa8, 0x46, 0x53, 0x3e, 0xea, 0x4d, 0x03, 0xbe,
  0xb3, 0x30, 0xa0, 0xbe, 0xaa, 0xa0, 0x80, 0x3e, 0x3f, 0x4e, 0x2a, 0xbe,
  0x5a, 0x24, 0x3c, 0xbe, 0x78, 0x33, 0x46, 0x3d, 0xb0, 0x05, 0x9b, 0xbd,
  0xd0, 0xd9, 0x35, 0x3e, 0x0e, 0x13, 0xae, 0x3e, 0x5c, 0x87, 0x7d, 0xbe,
  0x08, 0xdf, 0xb1, 0xbe, 0xcc, 0x89, 0xbf, 0xbe, 0xc8, 0x1f, 0x9b, 0xbd,
  0xa8, 0xdf, 0xa2, 0x3e, 0x76, 0x7b, 0x6e, 0xbe, 0x86, 0x64, 0x8b, 0xbe,
  0x74, 0xe5, 0xc7, 0xbe, 0x5f, 0xa5, 0xa3, 0xbd, 0x8c, 0x92, 0x23, 0x3e,
  0x46, 0xd9, 0x81, 0xbe, 0xb3, 0x3f, 0x28, 0xbe, 0x45, 0xd7, 0x74, 0x3e,
  0xdb, 0xac, 0xa5, 0xbe, 0xaa, 0x70, 0x33, 0x3e, 0x85, 0x7e, 0x5a, 0xb9,
  0x43, 0x8a, 0x18, 0xbe, 0x6e, 0xce, 0xae, 0x3d, 0xc1, 0xdb, 0x2a, 0xbe,
  0x24, 0x86, 0x67, 0x3e, 0x9e, 0x9a, 0xb5, 0xbe, 0x97, 0x20, 0x8a, 0xbe,
  0xcd, 0x32, 0x3b, 0x3e, 0x2c, 0xf4, 0xa8, 0xbe, 0x61, 0xc4, 0x91, 0xbe,
  0xf6, 0xad, 0x81, 0x3a, 0x00, 0x8b, 0x7d, 0xbd, 0x31, 0x04, 0x9f, 0x3e,
  0xf7, 0xc9, 0xa8, 0x3e, 0xd5, 0x43, 0xbe, 0x3e, 0xfe, 0x61, 0x83, 0xbd,
  0x27, 0xf4, 0x06, 0xbe, 0x5b, 0x24, 0xa6, 0xbe, 0x63, 0x3c, 0x9e, 0x3e,
  0xe4, 0x18, 0xc8, 0xbd, 0xa3, 0x64, 0x9c, 0xbe, 0x06, 0xc0, 0x0c, 0xbe,
  0xe4, 0xcc, 0x87, 0xbe, 0x21, 0x7e, 0xa6, 0x3e, 0x32, 0xd6, 0xb1, 0xbe,
  0x7e, 0x26, 0x9e, 0x3e, 0x55, 0xed, 0x98, 0x3e, 0xcc, 0x6b, 0x0b, 0x3e,
  0xab, 0x52, 0x69, 0x3d, 0xdf, 0x99, 0xa3, 0xbe, 0x38, 0x24, 0xac, 0xbd,
  0x25, 0xba, 0x11, 0x3e, 0xd8, 0x50, 0x15, 0xbe, 0x79, 0x3d, 0xde, 0x3d,
  0x6d, 0x40, 0x93, 0x3e, 0x75, 0x69, 0x52, 0xbe, 0x73, 0xe3, 0xc9, 0x3e,
  0x62, 0xa3, 0xa7, 0x3e, 0x20, 0x53, 0xc9, 0x3d, 0xa3, 0x55, 0xde, 0xbd,
  0x4c, 0xd0, 0x54, 0xbb, 0x8c, 0x93, 0xa9, 0x3e, 0x9d, 0x0a, 0x46, 0xbe,
  0xab, 0x1b, 0xa4, 0xbe, 0xa5, 0xd0, 0xa4, 0xbe, 0x2e, 0xab, 0x16, 0xbe,
  0xbb, 0x85, 0xc6, 0x3d, 0xb2, 0x32, 0xb6, 0xbd, 0x77, 0x88, 0x9e, 0x3e,
  0x2f, 0xa5, 0xa3, 0xbe, 0x37, 0xbc, 0x11, 0xbd, 0x7c, 0x03, 0x48, 0xbd,
  0xf2, 0x9b, 0x19, 0xbe, 0xd2, 0x29, 0x85, 0x3e, 0x8f, 0x8e, 0x89, 0xbd,
  0x0e, 0x06, 0xc4, 0x3e, 0x1c, 0xf0, 0x3b, 0xbe, 0xaa, 0x94, 0xcb, 0x3e,
  0x76, 0xb1, 0x8d, 0xbe, 0xdd, 0x4a, 0x7d, 0x3e, 0xd0, 0x33, 0x76, 0x3e,
  0x31, 0x7c, 0xa3, 0x3e, 0x13, 0x52, 0xba, 0xbe, 0x90, 0x43, 0xb3, 0x3e,
  0xe8, 0xd3, 0x9a, 0x3e, 0x76, 0x28, 0x36, 0xbe, 0x85, 0x62, 0x70, 0x3e,
  0x8e, 0xa7, 0xac, 0xbe, 0x0f, 0x25, 0xc7, 0x3e, 0x71, 0xf6, 0x63, 0x3d,
  0xf6, 0xf6, 0xab, 0xbe, 0x5d, 0x95, 0x86, 0x3c, 0x1f, 0xb1, 0xdf, 0x3e,
  0x6a, 0x6e, 0x86, 0x3e, 0x04, 0xe6, 0x3c, 0x3d, 0x2c, 0x4d, 0xdc, 0xbd,
  0x9b, 0x07, 0x64, 0x3e, 0xc2, 0xae, 0x85, 0x3e, 0x8b, 0xf0, 0x42, 0xbd,
  0x07, 0xf7, 0xcc, 0x3e, 0xff, 0x1e, 0xc1, 0xbd, 0xe6, 0xcb, 0x8d, 0x3e,
  0x84, 0x57, 0xab, 0xbe, 0x49, 0x5b, 0x8f, 0x3e, 0xf3, 0x91, 0x13, 0xbd,
  0xe3, 0x28, 0xda, 0x3d, 0xce, 0x99, 0xbb, 0x3e, 0x5c, 0x42, 0x62, 0xbc,
  0x70, 0x57, 0x46, 0x3e, 0xd7, 0x66, 0x54, 0x3e, 0x68, 0xaf, 0xcb, 0xbe,
  0x91, 0xbf, 0x6f, 0xbe, 0x6f, 0xb5, 0x26, 0x3e, 0x52, 0x47, 0xbb, 0xbe,
  0x9d, 0xda, 0xa1, 0x3e, 0xf0, 0xbf, 0xbb, 0xbe, 0x90, 0x35, 0xc3, 0x3e,
  0x9b, 0xa3, 0x21, 0xbe, 0x38, 0xea, 0x95, 0x3d, 0xdb, 0x0b, 0x9a, 0xbc,
  0xbc, 0x52, 0x8c, 0x3e, 0xdd, 0x18, 0x6c, 0xbe, 0x88, 0xf9, 0x46, 0x3d,
  0xd9, 0xb4, 0xd7, 0x3d, 0xe2, 0x05, 0x24, 0x3e, 0xc1, 0xbf, 0x31, 0xbe,
  0x7a, 0x88, 0x78, 0xbd, 0x0a, 0x7d, 0x88, 0xbe, 0x19, 0xd7, 0xf5, 0x3d,
  0xf6, 0x34, 0xcf, 0x3d, 0x6d, 0xdb, 0xa6, 0x3e, 0x3b, 0xae, 0xca, 0xbe,
  0x7c, 0xd0, 0x9e, 0xbe, 0xa9, 0x86, 0x75, 0x3d, 0x19, 0xf8, 0xd3, 0xbd,
  0x22, 0xa3, 0x1a, 0xbd, 0x77, 0x98, 0x94, 0xbe, 0xf2, 0x92, 0xcc, 0x3e,
  0x57, 0xf3, 0x87, 0xbe, 0x81, 0xb9, 0xc2, 0x3e, 0x67, 0xea, 0xab, 0x3c,
  0xaa, 0x9a, 0xa1, 0xbe, 0x81, 0xff, 0x70, 0xbe, 0x29, 0xd1, 0x42, 0x3e,
  0xdb, 0xcd, 0x6d, 0xbd, 0xfa, 0x93, 0x95, 0x3e, 0x1b, 0xf2, 0x70, 0xbd,
  0xe1, 0x7d, 0x2e, 0x3e, 0x77, 0xa4, 0x0b, 0xbb, 0x28, 0x5f, 0xa5, 0xbe,
  0x1d, 0x7b, 0xbf, 0x3e, 0xad, 0x05, 0x24, 0xbe, 0x2d, 0x32, 0x6f, 0x3e,
  0xa9, 0x3f, 0x92, 0x3e, 0x37, 0x79, 0xbe, 0x3d, 0xed, 0xdf, 0x0b, 0x3d,
  0x58, 0x4f, 0x1b, 0x3e, 0xef, 0x67, 0x7f, 0x3e, 0x61, 0x58, 0x71, 0xbd,
  0x5c, 0xaf, 0x1e, 0xbe, 0x47, 0x62, 0x6b, 0x3c, 0xe4, 0x23, 0x0e, 0xbe,
  0xa4, 0xa1, 0xf1, 0xbd, 0xef, 0xc5, 0x92, 0x3e, 0x33, 0x28, 0x4e, 0xbe,
  0xc3, 0xd7, 0x3e, 0x3e, 0x70, 0xe9, 0x0c, 0x3d, 0x0e, 0x71, 0x20, 0xbe,
  0x6f, 0x7d, 0x63, 0xbe, 0x5c, 0xc1, 0x5f, 0x3e, 0xbe, 0x82, 0xb1, 0x3e,
  0x32, 0x2b, 0x74, 0xbe, 0x10, 0xe7, 0x00, 0x3d, 0x50, 0x53, 0x41, 0xbd,
  0x00, 0xf1, 0x28, 0x3e, 0xa1, 0xba, 0x8e, 0x3e, 0xa1, 0x22, 0x01, 0x3e,
  0x82, 0x52, 0xa5, 0x3e, 0xa8, 0xfc, 0x5b, 0xbd, 0xa8, 0xdf, 0x5e, 0xbe,
  0xf8, 0x66, 0x1a, 0xbe, 0xfa, 0x41, 0xc4, 0xbe, 0x4b, 0x36, 0x44, 0xbd,
  0x92, 0xc6, 0xa2, 0x3e, 0x10, 0xb3, 0xa9, 0xbc, 0x32, 0x68, 0x07, 0xbe,
  0xe7, 0x1b, 0xb9, 0xbe, 0x30, 0x4b, 0x2f, 0x3e, 0x40, 0xe4, 0xd5, 0x3c,
  0x14, 0xc8, 0x75, 0x3e, 0x30, 0x4e, 0x4b, 0x3e, 0xd8, 0xdd, 0xbb, 0xbd,
  0x44, 0xf0, 0x30, 0x3e, 0xb8, 0xa2, 0x50, 0x3e, 0xca, 0x02, 0x0c, 0xbe,
  0x24, 0x75, 0x2e, 0xbe, 0xa1, 0xd0, 0xa3, 0xbe, 0x44, 0x3c, 0xfd, 0xbd,
  0x44, 0xc3, 0xab, 0xbe, 0xc0, 0xcf, 0xde, 0x3c, 0x88, 0xb8, 0xe2, 0xbd,
  0x80, 0x27, 0x1f, 0x3d, 0x6e, 0xc4, 0xb5, 0x3e, 0xfe, 0x3e, 0xbd, 0xbe,
  0x8e, 0xcb, 0x97, 0xbe, 0xa4, 0x6c, 0x8b, 0x3d, 0x40, 0x90, 0xa3, 0xbe,
  0x00, 0x16, 0x84, 0xbe, 0x1d, 0xf9, 0xba, 0xbe, 0xfe, 0xfd, 0xff, 0xff,
  0x04, 0x00, 0x00, 0x00, 0x2c, 0x01, 0x00, 0x00, 0x5d, 0x10, 0xb5, 0x3e,
  0x45, 0x10, 0x4d, 0x3e, 0x86, 0xa1, 0xf7, 0xbe, 0x8e, 0xed, 0xcf, 0x3b,
  0xe9, 0x8a, 0x9f, 0xbe, 0xdd, 0x36, 0xcf, 0x3e, 0x66, 0x47, 0x2d, 0x3e,
  0x3f, 0x7e, 0xc9, 0xbe, 0x21, 0x2b, 0x22, 0x3d, 0x11, 0xaf, 0xdf, 0x3e,
  0x54, 0x13, 0xd3, 0x3e, 0xc2, 0x98, 0x3f, 0x3e, 0xa3, 0x8c, 0x2d, 0xbd,
  0x3d, 0x92, 0xa8, 0xbe, 0x86, 0xd8, 0x17, 0xbd, 0x95, 0x47, 0xd2, 0xbd,
  0x4a, 0xd6, 0x90, 0xbe, 0xa2, 0x51, 0xba, 0x3e, 0x66, 0x0d, 0x3d, 0xbc,
  0x5d, 0xde, 0x1c, 0xbe, 0x10, 0x0b, 0x8b, 0x3e, 0xb1, 0x10, 0x96, 0xbd,
  0xec, 0x40, 0x95, 0xbe, 0xff, 0x9d, 0x67, 0x3c, 0x97, 0xd4, 0x2c, 0x3d,
  0x34, 0x95, 0x5c, 0x3e, 0x12, 0xdb, 0x49, 0xbd, 0x86, 0x96, 0xf2, 0xbe,
  0xc0, 0x82, 0x83, 0xbe, 0x14, 0xf4, 0x9c, 0x3e, 0x9a, 0xf0, 0x31, 0x3e,
  0xa3, 0x71, 0xb8, 0x3e, 0x71, 0x52, 0xea, 0xbc, 0xd6, 0x04, 0xa8, 0xbe,
  0xd1, 0x45, 0x8f, 0xbd, 0x22, 0xa9, 0x7a, 0xbe, 0xea, 0x7c, 0x35, 0x3e,
  0x99, 0x1f, 0xb1, 0xbe, 0x99, 0x7a, 0xea, 0xbe, 0x84, 0xa4, 0xc2, 0x3e,
  0x26, 0xc2, 0xc4, 0xbe, 0xad, 0x3a, 0xa1, 0x3e, 0x3c, 0x59, 0xfa, 0x3e,
  0x46, 0x06, 0x3e, 0xbd, 0x1f, 0x82, 0x94, 0xbe, 0xc9, 0xe6, 0xeb, 0x3e,
  0xfe, 0x7b, 0xac, 0x3e, 0x17, 0xae, 0x76, 0xbe, 0xef, 0xb4, 0x53, 0xbe,
  0x19, 0x96, 0x36, 0x3d, 0xac, 0x31, 0x86, 0x3e, 0xf0, 0x2c, 0x7f, 0x3d,
  0xbd, 0xf7, 0x07, 0xbe, 0x01, 0xf0, 0xda, 0xbe, 0x47, 0x9e, 0xf0, 0x3e,
  0x27, 0x6c, 0x16, 0xbd, 0x9b, 0xf6, 0x95, 0x3e, 0xf4, 0x0c, 0xfd, 0x3e,
  0xc3, 0xcd, 0x79, 0xbc, 0xe4, 0x44, 0x49, 0x3e, 0x5c, 0xac, 0xbd, 0x3e,
  0xe7, 0x20, 0x12, 0x3d, 0x7d, 0x4f, 0x02, 0x3e, 0x2f, 0xa1, 0xbe, 0x3e,
  0x02, 0xee, 0x06, 0x3e, 0x49, 0x9d, 0x77, 0xbe, 0xb2, 0xef, 0xcd, 0x3e,
  0xea, 0x20, 0xe6, 0xbd, 0x3d, 0x04, 0x3e, 0x3d, 0xa5, 0xcb, 0xd7, 0xbe,
  0x57, 0x4f, 0x02, 0x3f, 0xf5, 0x91, 0x47, 0x3e, 0xc7, 0x41, 0x9e, 0x3e,
  0x94, 0x32, 0x55, 0x3e, 0x91, 0x8d, 0xea, 0xbe, 0x36, 0xff, 0xff, 0xff,
  0x04, 0x00, 0x00, 0x00, 0x64, 0x00, 0x00, 0x00, 0x88, 0x85, 0x12, 0x3d,
  0xd1, 0xed, 0x27, 0xbd, 0x79, 0x70, 0x09, 0x3d, 0x74, 0x6f, 0xcf, 0xbc,
  0x25, 0x88, 0xf9, 0xbc, 0xb1, 0x96, 0x53, 0x3d, 0x19, 0x06, 0x40, 0xbd,
  0x93, 0x16, 0x09, 0xbd, 0x52, 0x3c, 0x46, 0x3d, 0x07, 0x6c, 0xb4, 0x3c,
  0x38, 0xf8, 0x9c, 0x3c, 0x59, 0x8b, 0x9a, 0x3c, 0x7f, 0x25, 0x17, 0x3d,
  0x59, 0x5a, 0x13, 0x3d, 0x5e, 0x76, 0x1a, 0x3d, 0x9d, 0xd8, 0xb0, 0x3c,
  0x65, 0x76, 0xda, 0x3c, 0xba, 0x72, 0xbf, 0x3c, 0xec, 0x3d, 0x0b, 0x3d,
  0xe4, 0x46, 0x23, 0x3d, 0x3e, 0xc0, 0x21, 0x3d, 0x6a, 0xeb, 0x07, 0x3d,
  0x67, 0x45, 0x1f, 0x3d, 0xa1, 0x21, 0x85, 0x3d, 0x41, 0x32, 0x19, 0x3d,
  0xa6, 0xff, 0xff, 0xff, 0x04, 0x00, 0x00, 0x00, 0x04, 0x00, 0x00, 0x00,
  0x99, 0x06, 0x80, 0x3d, 0xb6, 0xff, 0xff, 0xff, 0x04, 0x00, 0x00, 0x00,
  0x3c, 0x00, 0x00, 0x00, 0x18, 0xa0, 0xe0, 0x3c, 0xc4, 0xbb, 0x86, 0x3c,
  0xcc, 0xbb, 0x83, 0x3d, 0xec, 0x37, 0x2e, 0xbd, 0x00, 0x00, 0x00, 0x00,
  0x2a, 0x53, 0x0e, 0x3d, 0x00, 0x00, 0x00, 0x00, 0x09, 0x17, 0xef, 0xbc,
  0xe0, 0x43, 0x86, 0x3d, 0x8a, 0x1a, 0x23, 0x3d, 0x35, 0x39, 0x38, 0x3d,
  0x0e, 0xe7, 0xf9, 0xbc, 0x2a, 0x65, 0x91, 0x3d, 0x6b, 0xb7, 0xf3, 0xbc,
  0x00, 0x00, 0x00, 0x00, 0x00, 0x00, 0x06, 0x00, 0x08, 0x00, 0x04, 0x00,
  0x06, 0x00, 0x00, 0x00, 0x04, 0x00, 0x00, 0x00, 0x14, 0x00, 0x00, 0x00,
  0xa6, 0xd5, 0x00, 0xbd, 0x00, 0x00, 0x00, 0x00, 0x0e, 0x57, 0x82, 0x3d,
  0x10, 0x48, 0x8c, 0x3d, 0x2a, 0x6e, 0x87, 0x3d, 0xe8, 0xf9, 0xff, 0xff,
  0xec, 0xf9, 0xff, 0xff, 0x0f, 0x00, 0x00, 0x00, 0x4d, 0x4c, 0x49, 0x52,
  0x20, 0x43, 0x6f, 0x6e, 0x76, 0x65, 0x72, 0x74, 0x65, 0x64, 0x2e, 0x00,
  0x01, 0x00, 0x00, 0x00, 0x14, 0x00, 0x00, 0x00, 0x00, 0x00, 0x0e, 0x00,
  0x18, 0x00, 0x14, 0x00, 0x10, 0x00, 0x0c, 0x00, 0x08, 0x00, 0x04, 0x00,
  0x0e, 0x00, 0x00, 0x00, 0x14, 0x00, 0x00, 0x00, 0x1c, 0x00, 0x00, 0x00,
  0x10, 0x01, 0x00, 0x00, 0x14, 0x01, 0x00, 0x00, 0x18, 0x01, 0x00, 0x00,
  0x04, 0x00, 0x00, 0x00, 0x6d, 0x61, 0x69, 0x6e, 0x00, 0x00, 0x00, 0x00,
  0x04, 0x00, 0x00, 0x00, 0xb8, 0x00, 0x00, 0x00, 0x70, 0x00, 0x00, 0x00,
  0x38, 0x00, 0x00, 0x00, 0x04, 0x00, 0x00, 0x00, 0x66, 0xff, 0xff, 0xff,
  0x10, 0x00, 0x00, 0x00, 0x00, 0x00, 0x00, 0x08, 0x0c, 0x00, 0x00, 0x00,
  0x10, 0x00, 0x00, 0x00, 0x68, 0xfa, 0xff, 0xff, 0x01, 0x00, 0x00, 0x00,
  0x0c, 0x00, 0x00, 0x00, 0x03, 0x00, 0x00, 0x00, 0x0b, 0x00, 0x00, 0x00,
  0x08, 0x00, 0x00, 0x00, 0x03, 0x00, 0x00, 0x00, 0x96, 0xff, 0xff, 0xff,
  0x10, 0x00, 0x00, 0x00, 0x00, 0x00, 0x00, 0x08, 0x10, 0x00, 0x00, 0x00,
  0x14, 0x00, 0x00, 0x00, 0x86, 0xff, 0xff, 0xff, 0x00, 0x00, 0x00, 0x01,
  0x01, 0x00, 0x00, 0x00, 0x0b, 0x00, 0x00, 0x00, 0x03, 0x00, 0x00, 0x00,
  0x0a, 0x00, 0x00, 0x00, 0x07, 0x00, 0x00, 0x00, 0x01, 0x00, 0x00, 0x00,
  0xca, 0xff, 0xff, 0xff, 0x10, 0x00, 0x00, 0x00, 0x00, 0x00, 0x00, 0x08,
  0x10, 0x00, 0x00, 0x00, 0x14, 0x00, 0x00, 0x00, 0xba, 0xff, 0xff, 0xff,
  0x00, 0x00, 0x00, 0x01, 0x01, 0x00, 0x00, 0x00, 0x0a, 0x00, 0x00, 0x00,
  0x03, 0x00, 0x00, 0x00, 0x09, 0x00, 0x00, 0x00, 0x06, 0x00, 0x00, 0x00,
  0x02, 0x00, 0x00, 0x00, 0x00, 0x00, 0x0e, 0x00, 0x16, 0x00, 0x00, 0x00,
  0x10, 0x00, 0x0c, 0x00, 0x0b, 0x00, 0x04, 0x00, 0x0e, 0x00, 0x00, 0x00,
  0x18, 0x00, 0x00, 0x00, 0x00, 0x00, 0x00, 0x08, 0x18, 0x00, 0x00, 0x00,
  0x1c, 0x00, 0x00, 0x00, 0x00, 0x00, 0x06, 0x00, 0x08, 0x00, 0x07, 0x00,
  0x06, 0x00, 0x00, 0x00, 0x00, 0x00, 0x00, 0x01, 0x01, 0x00, 0x00, 0x00,
  0x09, 0x00, 0x00, 0x00, 0x03, 0x00, 0x00, 0x00, 0x00, 0x00, 0x00, 0x00,
  0x05, 0x00, 0x00, 0x00, 0x04, 0x00, 0x00, 0x00, 0x01, 0x00, 0x00, 0x00,
  0x0c, 0x00, 0x00, 0x00, 0x01, 0x00, 0x00, 0x00, 0x00, 0x00, 0x00, 0x00,
  0x0d, 0x00, 0x00, 0x00, 0x8c, 0x04, 0x00, 0x00, 0x20, 0x04, 0x00, 0x00,
  0xb4, 0x03, 0x00, 0x00, 0x60, 0x03, 0x00, 0x00, 0x0c, 0x03, 0x00, 0x00,
  0xc4, 0x02, 0x00, 0x00, 0x7c, 0x02, 0x00, 0x00, 0x34, 0x02, 0x00, 0x00,
  0xec, 0x01, 0x00, 0x00, 0x68, 0x01, 0x00, 0x00, 0xe4, 0x00, 0x00, 0x00,
  0x60, 0x00, 0x00, 0x00, 0x04, 0x00, 0x00, 0x00, 0xbe, 0xfb, 0xff, 0xff,
  0x00, 0x00, 0x00, 0x01, 0x14, 0x00, 0x00, 0x00, 0x1c, 0x00, 0x00, 0x00,
  0x1c, 0x00, 0x00, 0x00, 0x0d, 0x00, 0x00, 0x00, 0x34, 0x00, 0x00, 0x00,
  0x02, 0x00, 0x00, 0x00, 0xff, 0xff, 0xff, 0xff, 0x01, 0x00, 0x00, 0x00,
  0xa8, 0xfb, 0xff, 0xff, 0x19, 0x00, 0x00, 0x00, 0x53, 0x74, 0x61, 0x74,
  0x65, 0x66, 0x75, 0x6c, 0x50, 0x61, 0x72, 0x74, 0x69, 0x74, 0x69, 0x6f,
  0x6e, 0x65, 0x64, 0x43, 0x61, 0x6c, 0x6c, 0x3a, 0x30, 0x00, 0x00, 0x00,
  0x02, 0x00, 0x00, 0x00, 0x01, 0x00, 0x00, 0x00, 0x01, 0x00, 0x00, 0x00,
  0x16, 0xfc, 0xff, 0xff, 0x00, 0x00, 0x00, 0x01, 0x14, 0x00, 0x00, 0x00,
  0x1c, 0x00, 0x00, 0x00, 0x1c, 0x00, 0x00, 0x00, 0x0c, 0x00, 0x00, 0x00,
  0x5c, 0x00, 0x00, 0x00, 0x02, 0x00, 0x00, 0x00, 0xff, 0xff, 0xff, 0xff,
  0x05, 0x00, 0x00, 0x00, 0x00, 0xfc, 0xff, 0xff, 0x43, 0x00, 0x00, 0x00,
  0x73, 0x65, 0x71, 0x75, 0x65, 0x6e, 0x74, 0x69, 0x61, 0x6c, 0x2f, 0x6c,
  0x61, 0x79, 0x33, 0x2f, 0x4d, 0x61, 0x74, 0x4d, 0x75, 0x6c, 0x3b, 0x73,
  0x65, 0x71, 0x75, 0x65, 0x6e, 0x74, 0x69, 0x61, 0x6c, 0x2f, 0x6c, 0x61,
  0x79, 0x33, 0x2f, 0x52, 0x65, 0x6c, 0x75, 0x3b, 0x73, 0x65, 0x71, 0x75,
  0x65, 0x6e, 0x74, 0x69, 0x61, 0x6c, 0x2f, 0x6c, 0x61, 0x79, 0x33, 0x2f,
  0x42, 0x69, 0x61, 0x73, 0x41, 0x64, 0x64, 0x00, 0x02, 0x00, 0x00, 0x00,
  0x01, 0x00, 0x00, 0x00, 0x05, 0x00, 0x00, 0x00, 0x96, 0xfc, 0xff, 0xff,
  0x00, 0x00, 0x00, 0x01, 0x14, 0x00, 0x00, 0x00, 0x1c, 0x00, 0x00, 0x00,
  0x1c, 0x00, 0x00, 0x00, 0x0b, 0x00, 0x00, 0x00, 0x5c, 0x00, 0x00, 0x00,
  0x02, 0x00, 0x00, 0x00, 0xff, 0xff, 0xff, 0xff, 0x0f, 0x00, 0x00, 0x00,
  0x80, 0xfc, 0xff, 0xff, 0x43, 0x00, 0x00, 0x00, 0x73, 0x65, 0x71, 0x75,
  0x65, 0x6e, 0x74, 0x69, 0x61, 0x6c, 0x2f, 0x6c, 0x61, 0x79, 0x32, 0x2f,
  0x4d, 0x61, 0x74, 0x4d, 0x75, 0x6c, 0x3b, 0x73, 0x65, 0x71, 0x75, 0x65,
  0x6e, 0x74, 0x69, 0x61, 0x6c, 0x2f, 0x6c, 0x61, 0x79, 0x32, 0x2f, 0x52,
  0x65, 0x6c, 0x75, 0x3b, 0x73, 0x65, 0x71, 0x75, 0x65, 0x6e, 0x74, 0x69,
  0x61, 0x6c, 0x2f, 0x6c, 0x61, 0x79, 0x32, 0x2f, 0x42, 0x69, 0x61, 0x73,
  0x41, 0x64, 0x64, 0x00, 0x02, 0x00, 0x00, 0x00, 0x01, 0x00, 0x00, 0x00,
  0x0f, 0x00, 0x00, 0x00, 0x16, 0xfd, 0xff, 0xff, 0x00, 0x00, 0x00, 0x01,
  0x14, 0x00, 0x00, 0x00, 0x1c, 0x00, 0x00, 0x00, 0x1c, 0x00, 0x00, 0x00,
  0x0a, 0x00, 0x00, 0x00, 0x5c, 0x00, 0x00, 0x00, 0x02, 0x00, 0x00, 0x00,
  0xff, 0xff, 0xff, 0xff, 0x19, 0x00, 0x00, 0x00, 0x00, 0xfd, 0xff, 0xff,
  0x43, 0x00, 0x00, 0x00, 0x73, 0x65, 0x71, 0x75, 0x65, 0x6e, 0x74, 0x69,
  0x61, 0x6c, 0x2f, 0x6c, 0x61, 0x79, 0x31, 0x2f, 0x4d, 0x61, 0x74, 0x4d,
  0x75, 0x6c, 0x3b, 0x73, 0x65, 0x71, 0x75, 0x65, 0x6e, 0x74, 0x69, 0x61,
  0x6c, 0x2f, 0x6c, 0x61, 0x79, 0x31, 0x2f, 0x52, 0x65, 0x6c, 0x75, 0x3b,
  0x73, 0x65, 0x71, 0x75, 0x65, 0x6e, 0x74, 0x69, 0x61, 0x6c, 0x2f, 0x6c,
  0x61, 0x79, 0x31, 0x2f, 0x42, 0x69, 0x61, 0x73, 0x41, 0x64, 0x64, 0x00,
  0x02, 0x00, 0x00, 0x00, 0x01, 0x00, 0x00, 0x00, 0x19, 0x00, 0x00, 0x00,
  0xfe, 0xfd, 0xff, 0xff, 0x00, 0x00, 0x00, 0x01, 0x10, 0x00, 0x00, 0x00,
  0x10, 0x00, 0x00, 0x00, 0x09, 0x00, 0x00, 0x00, 0x24, 0x00, 0x00, 0x00,
  0x70, 0xfd, 0xff, 0xff, 0x16, 0x00, 0x00, 0x00, 0x73, 0x65, 0x71, 0x75,
  0x65, 0x6e, 0x74, 0x69, 0x61, 0x6c, 0x2f, 0x6c, 0x61, 0x73, 0x74, 0x2f,
  0x4d, 0x61, 0x74, 0x4d, 0x75, 0x6c, 0x00, 0x00, 0x02, 0x00, 0x00, 0x00,
  0x01, 0x00, 0x00, 0x00, 0x05, 0x00, 0x00, 0x00, 0x42, 0xfe, 0xff, 0xff,
  0x00, 0x00, 0x00, 0x01, 0x10, 0x00, 0x00, 0x00, 0x10, 0x00, 0x00, 0x00,
  0x08, 0x00, 0x00, 0x00, 0x24, 0x00, 0x00, 0x00, 0xb4, 0xfd, 0xff, 0xff,
  0x16, 0x00, 0x00, 0x00, 0x73, 0x65, 0x71, 0x75, 0x65, 0x6e, 0x74, 0x69,
  0x61, 0x6c, 0x2f, 0x6c, 0x61, 0x79, 0x33, 0x2f, 0x4d, 0x61, 0x74, 0x4d,
  0x75, 0x6c, 0x00, 0x00, 0x02, 0x00, 0x00, 0x00, 0x05, 0x00, 0x00, 0x00,
  0x0f, 0x00, 0x00, 0x00, 0x86, 0xfe, 0xff, 0xff, 0x00, 0x00, 0x00, 0x01,
  0x10, 0x00, 0x00, 0x00, 0x10, 0x00, 0x00, 0x00, 0x07, 0x00, 0x00, 0x00,
  0x24, 0x00, 0x00, 0x00, 0xf8, 0xfd, 0xff, 0xff, 0x16, 0x00, 0x00, 0x00,
  0x73, 0x65, 0x71, 0x75, 0x65, 0x6e, 0x74, 0x69, 0x61, 0x6c, 0x2f, 0x6c,
  0x61, 0x79, 0x32, 0x2f, 0x4d, 0x61, 0x74, 0x4d, 0x75, 0x6c, 0x00, 0x00,
  0x02, 0x00, 0x00, 0x00, 0x0f, 0x00, 0x00, 0x00, 0x19, 0x00, 0x00, 0x00,
  0xca, 0xfe, 0xff, 0xff, 0x00, 0x00, 0x00, 0x01, 0x10, 0x00, 0x00, 0x00,
  0x10, 0x00, 0x00, 0x00, 0x06, 0x00, 0x00, 0x00, 0x24, 0x00, 0x00, 0x00,
  0x3c, 0xfe, 0xff, 0xff, 0x16, 0x00, 0x00, 0x00, 0x73, 0x65, 0x71, 0x75,
  0x65, 0x6e, 0x74, 0x69, 0x61, 0x6c, 0x2f, 0x6c, 0x61, 0x79, 0x31, 0x2f,
  0x4d, 0x61, 0x74, 0x4d, 0x75, 0x6c, 0x00, 0x00, 0x02, 0x00, 0x00, 0x00,
  0x19, 0x00, 0x00, 0x00, 0x03, 0x00, 0x00, 0x00, 0x0e, 0xff, 0xff, 0xff,
  0x00, 0x00, 0x00, 0x01, 0x10, 0x00, 0x00, 0x00, 0x10, 0x00, 0x00, 0x00,
  0x05, 0x00, 0x00, 0x00, 0x34, 0x00, 0x00, 0x00, 0x80, 0xfe, 0xff, 0xff,
  0x26, 0x00, 0x00, 0x00, 0x73, 0x65, 0x71, 0x75, 0x65, 0x6e, 0x74, 0x69,
  0x61, 0x6c, 0x2f, 0x6c, 0x61, 0x79, 0x31, 0x2f, 0x42, 0x69, 0x61, 0x73,
  0x41, 0x64, 0x64, 0x2f, 0x52, 0x65, 0x61, 0x64, 0x56, 0x61, 0x72, 0x69,
  0x61, 0x62, 0x6c, 0x65, 0x4f, 0x70, 0x00, 0x00, 0x01, 0x00, 0x00, 0x00,
  0x19, 0x00, 0x00, 0x00, 0x5e, 0xff, 0xff, 0xff, 0x00, 0x00, 0x00, 0x01,
  0x10, 0x00, 0x00, 0x00, 0x10, 0x00, 0x00, 0x00, 0x04, 0x00, 0x00, 0x00,
  0x34, 0x00, 0x00, 0x00, 0xd0, 0xfe, 0xff, 0xff, 0x26, 0x00, 0x00, 0x00,
  0x73, 0x65, 0x71, 0x75, 0x65, 0x6e, 0x74, 0x69, 0x61, 0x6c, 0x2f, 0x6c,
  0x61, 0x73, 0x74, 0x2f, 0x42, 0x69, 0x61, 0x73, 0x41, 0x64, 0x64, 0x2f,
  0x52, 0x65, 0x61, 0x64, 0x56, 0x61, 0x72, 0x69, 0x61, 0x62, 0x6c, 0x65,
  0x4f, 0x70, 0x00, 0x00, 0x01, 0x00, 0x00, 0x00, 0x01, 0x00, 0x00, 0x00,
  0xae, 0xff, 0xff, 0xff, 0x00, 0x00, 0x00, 0x01, 0x10, 0x00, 0x00, 0x00,
  0x10, 0x00, 0x00, 0x00, 0x03, 0x00, 0x00, 0x00, 0x34, 0x00, 0x00, 0x00,
  0x20, 0xff, 0xff, 0xff, 0x26, 0x00, 0x00, 0x00, 0x73, 0x65, 0x71, 0x75,
  0x65, 0x6e, 0x74, 0x69, 0x61, 0x6c, 0x2f, 0x6c, 0x61, 0x79, 0x32, 0x2f,
  0x42, 0x69, 0x61, 0x73, 0x41, 0x64, 0x64, 0x2f, 0x52, 0x65, 0x61, 0x64,
  0x56, 0x61, 0x72, 0x69, 0x61, 0x62, 0x6c, 0x65, 0x4f, 0x70, 0x00, 0x00,
  0x01, 0x00, 0x00, 0x00, 0x0f, 0x00, 0x00, 0x00, 0x00, 0x00, 0x16, 0x00,
  0x18, 0x00, 0x14, 0x00, 0x00, 0x00, 0x10, 0x00, 0x0c, 0x00, 0x08, 0x00,
  0x00, 0x00, 0x00, 0x00, 0x00, 0x00, 0x07, 0x00, 0x16, 0x00, 0x00, 0x00,
  0x00, 0x00, 0x00, 0x01, 0x10, 0x00, 0x00, 0x00, 0x10, 0x00, 0x00, 0x00,
  0x02, 0x00, 0x00, 0x00, 0x34, 0x00, 0x00, 0x00, 0x88, 0xff, 0xff, 0xff,
  0x26, 0x00, 0x00, 0x00, 0x73, 0x65, 0x71, 0x75, 0x65, 0x6e, 0x74, 0x69,
  0x61, 0x6c, 0x2f, 0x6c, 0x61, 0x79, 0x33, 0x2f, 0x42, 0x69, 0x61, 0x73,
  0x41, 0x64, 0x64, 0x2f, 0x52, 0x65, 0x61, 0x64, 0x56, 0x61, 0x72, 0x69,
  0x61, 0x62, 0x6c, 0x65, 0x4f, 0x70, 0x00, 0x00, 0x01, 0x00, 0x00, 0x00,
  0x05, 0x00, 0x00, 0x00, 0x00, 0x00, 0x16, 0x00, 0x1c, 0x00, 0x18, 0x00,
  0x00, 0x00, 0x14, 0x00, 0x10, 0x00, 0x0c, 0x00, 0x00, 0x00, 0x00, 0x00,
  0x08, 0x00, 0x07, 0x00, 0x16, 0x00, 0x00, 0x00, 0x00, 0x00, 0x00, 0x01,
  0x14, 0x00, 0x00, 0x00, 0x20, 0x00, 0x00, 0x00, 0x20, 0x00, 0x00, 0x00,
  0x01, 0x00, 0x00, 0x00, 0x34, 0x00, 0x00, 0x00, 0x02, 0x00, 0x00, 0x00,
  0xff, 0xff, 0xff, 0xff, 0x03, 0x00, 0x00, 0x00, 0x04, 0x00, 0x04, 0x00,
  0x04, 0x00, 0x00, 0x00, 0x17, 0x00, 0x00, 0x00, 0x73, 0x65, 0x72, 0x76,
  0x69, 0x6e, 0x67, 0x5f, 0x64, 0x65, 0x66, 0x61, 0x75, 0x6c, 0x74, 0x5f,
  0x69, 0x6e, 0x70, 0x75, 0x74, 0x3a, 0x30, 0x00, 0x02, 0x00, 0x00, 0x00,
  0x01, 0x00, 0x00, 0x00, 0x03, 0x00, 0x00, 0x00, 0x01, 0x00, 0x00, 0x00,
  0x10, 0x00, 0x00, 0x00, 0x0c, 0x00, 0x0c, 0x00, 0x0b, 0x00, 0x00, 0x00,
  0x00, 0x00, 0x04, 0x00, 0x0c, 0x00, 0x00, 0x00, 0x09, 0x00, 0x00, 0x00,
  0x00, 0x00, 0x00, 0x09
};
unsigned int optimized_tflite_len = 4528;
